3b2052656c656173653a204d756c74696c617965722050657263657074726f6e
20284d4c50290a3b205461673a204d756c74696c617965722d50657263657074
726f6e2d284d4c50290a3b204578747261637465642066726f6d204769744875
622052656c656173650a3b0a3b203d3d3d20496e6c696e652041534d2031203d
3d3d0a676c6f62616c206875625f6c61796572310a73656374696f6e202e7465
78740a6875625f6c61796572313a0a202020206d6f7661707320786d6d302c20
5b6573702b345d202020203b206361727265676172207665746f722064652065
6e74726164610a202020206d6f7661707320786d6d312c205b6573702b32305d
2020203b206361727265676172207065736f732064612063616d61646120310a
20202020646f74707320786d6d302c20786d6d3120202020202020203b207072
6f6475746f20657363616c61722028464331290a2020202072656c7520786d6d
302020202020202020202020202020203b206174697661e7e36f2052654c550a
2020202073746f726574205b6573702b33365d2c20786d6d302020203b206172
6d617a656e6172207361ed64612064612063616d61646120310a202020207265
740a0a3b203d3d3d20496e6c696e652041534d2032203d3d3d0a676c6f62616c
2073706972616c5f6c61796572320a73656374696f6e202e746578740a737069
72616c5f6c61796572323a0a202020206d6f7661707320786d6d302c205b6573
702b345d202020203b206361727265676172207361ed64612064612063616d61
646120310a202020206d6f7661707320786d6d312c205b6573702b32305d2020
203b206361727265676172207065736f732064612063616d61646120320a2020
2020646f74707320786d6d302c20786d6d3120202020202020203b2070726f64
75746f20657363616c61722028464332290a2020202074616e6820786d6d3020
20202020202020202020202020203b206174697661e7e36f2054616e680a2020
202073746f726574205b6573702b33365d2c20786d6d302020203b2061726d61
7a656e6172207361ed64612064612063616d61646120320a202020207265740a
0a3b203d3d3d20496e6c696e652041534d2033203d3d3d0a676c6f62616c2072
65736f6e616e63655f6f75747075740a73656374696f6e202e746578740a7265
736f6e616e63655f6f75747075743a0a202020206d6f76206561782c205b6573
702b345d20202020202020203b20636172726567617220657363616c61722064
6520726573736f6ee26e6369610a20202020626361737420786d6d302c206561
782020202020202020203b2062726f61646361737420657363616c6172202192
207665746f720a202020206c6f61647420786d6d312c205b6573702b32305d20
2020203b206361727265676172207361ed64612064612063616d61646120320a
2020202074656e6d756c20786d6d302c20786d6d31202020202020203b206d75
6c7469706c696361e7e36f20726573736f6e616e74650a202020207369676d20
786d6d302020202020202020202020202020203b206174697661e7e36f206669
6e616c205369676d6f69640a2020202073746f726574205b6573702b33365d2c
20786d6d302020203b2061726d617a656e6172207361ed64612066696e616c0a
202020207265740a0a3b203d3d3d20496e6c696e652041534d2034203d3d3d0a
73656374696f6e202e746578740a6d6c70666f7277617264706173733a0a2020
202063616c6c206875625f6c61796572312020202020202020203b2063616d61
6461203120284643202b2052654c55290a2020202063616c6c2073706972616c
5f6c61796572322020202020203b2063616d616461203220284643202b205461
6e68290a2020202063616c6c207265736f6e616e63655f6f7574707574202020
3b2063616d6164612066696e616c20285369676d6f6964202b20726573736f6e
e26e636961290a202020207265740a
